TRT-8403-EntropyCalibration2
000_net: 3c010a14
001_convolutional_bn: 3e805717
001_convolutional_softplus: 3e2cfe0d
001_convolutional_tanh: 3c010a14
001_convolutional_mish: 3e17eb8a
002_convolutional_bn: 3e92d1b3
002_convolutional_softplus: 3e101a1d
002_convolutional_tanh: 3c010a14
002_convolutional_mish: 3e9271c3
003_convolutional_bn: 3e4ff6a7
003_convolutional_softplus: 3def5551
003_convolutional_tanh: 3c010a14
003_convolutional_mish: 3de0d406
005_convolutional_bn: 3e10b46f
005_convolutional_softplus: 3da8ec5b
005_convolutional_tanh: 3c010a14
005_convolutional_mish: 3d86f94c
006_convolutional_bn: 3e729d70
006_convolutional_softplus: 3e206816
006_convolutional_tanh: 3c010a14
006_convolutional_mish: 3dd5f7dc
007_convolutional_bn: 3e53c678
007_convolutional_softplus: 3de4ee2d
007_convolutional_tanh: 3c010a14
007_convolutional_mish: 3de4ee2d
008_shortcut: 3e4fbe8a
009_convolutional_bn: 3e55cbc8
009_convolutional_softplus: 3df30eb8
009_convolutional_tanh: 3c010a14
009_convolutional_mish: 3da72d17
010_route: 3da72d17
011_convolutional_bn: 3e3bcc13
011_convolutional_softplus: 3de231f7
011_convolutional_tanh: 3c010a14
011_convolutional_mish: 3de231f7
012_convolutional_bn: 3e17e471
012_convolutional_softplus: 3db53da3
012_convolutional_tanh: 3c010a14
012_convolutional_mish: 3da9ec9d
013_convolutional_bn: 3df0727e
013_convolutional_softplus: 3dbf58a7
013_convolutional_tanh: 3c010a14
013_convolutional_mish: 3d9f79dc
015_convolutional_bn: 3d9c99aa
015_convolutional_softplus: 3d8bda64
015_convolutional_tanh: 3c010a14
015_convolutional_mish: 3d804510
016_convolutional_bn: 3da2e746
016_convolutional_softplus: 3d901c78
016_convolutional_tanh: 3c010a14
016_convolutional_mish: 3d9ce38c
017_convolutional_bn: 3dc1083f
017_convolutional_softplus: 3d9ed049
017_convolutional_tanh: 3c010a14
017_convolutional_mish: 3d54b9c3
018_shortcut: 3dcf4df9
019_convolutional_bn: 3d9b308a
019_convolutional_softplus: 3d6bf267
019_convolutional_tanh: 3c010a14
019_convolutional_mish: 3d3abec1
020_convolutional_bn: 3e1b7fdd
020_convolutional_softplus: 3da88a39
020_convolutional_tanh: 3c010a14
020_convolutional_mish: 3d86c9c3
021_shortcut: 3e1b1e37
022_convolutional_bn: 3e054d2e
022_convolutional_softplus: 3daf8265
022_convolutional_tanh: 3c010a14
022_convolutional_mish: 3da48cfc
023_route: 3da48cfc
024_convolutional_bn: 3e1dce81
024_convolutional_softplus: 3d7a70b4
024_convolutional_tanh: 3c010a14
024_convolutional_mish: 3d896cc1
025_convolutional_bn: 3df7e95d
025_convolutional_softplus: 3d97c00a
025_convolutional_tanh: 3c010a14
025_convolutional_mish: 3d1fb315
026_convolutional_bn: 3e0181cb
026_convolutional_softplus: 3d9ec18b
026_convolutional_tanh: 3c010a14
026_convolutional_mish: 3d39fc16
028_convolutional_bn: 3dbaf54e
028_convolutional_softplus: 3d9a2573
028_convolutional_tanh: 3c010a14
028_convolutional_mish: 3d8124e5
029_convolutional_bn: 3dc72c38
029_convolutional_softplus: 3d6f52be
029_convolutional_tanh: 3c010a14
029_convolutional_mish: 3d36fb1c
030_convolutional_bn: 3dadb87b
030_convolutional_softplus: 3d4ea335
030_convolutional_tanh: 3c010a14
030_convolutional_mish: 3d23a4df
031_shortcut: 3db59509
032_convolutional_bn: 3dd19abf
032_convolutional_softplus: 3d6d0c81
032_convolutional_tanh: 3c010a14
032_convolutional_mish: 3d23bb1f
033_convolutional_bn: 3dd86a39
033_convolutional_softplus: 3d5f899b
033_convolutional_tanh: 3c010a14
033_convolutional_mish: 3d10c81e
034_shortcut: 3dbbf7ca
035_convolutional_bn: 3e0bf302
035_convolutional_softplus: 3d552135
035_convolutional_tanh: 3c010a14
035_convolutional_mish: 3d119125
036_convolutional_bn: 3dc28f52
036_convolutional_softplus: 3d806d1b
036_convolutional_tanh: 3c010a14
036_convolutional_mish: 3d20a873
037_shortcut: 3e088379
038_convolutional_bn: 3e25b6b2
038_convolutional_softplus: 3d6ffb1f
038_convolutional_tanh: 3c010a14
038_convolutional_mish: 3d2285eb
039_convolutional_bn: 3e0a9fa9
039_convolutional_softplus: 3dd47b28
039_convolutional_tanh: 3c010a14
039_convolutional_mish: 3d387a48
040_shortcut: 3e255cdc
041_convolutional_bn: 3dd98edc
041_convolutional_softplus: 3d3c99b2
041_convolutional_tanh: 3c010a14
041_convolutional_mish: 3cd57ae8
042_convolutional_bn: 3dbb90b8
042_convolutional_softplus: 3d7675fa
042_convolutional_tanh: 3c010a14
042_convolutional_mish: 3d3b7d31
043_shortcut: 3e251a4a
044_convolutional_bn: 3ddc4016
044_convolutional_softplus: 3d293454
044_convolutional_tanh: 3c010a14
044_convolutional_mish: 3d02a82a
045_convolutional_bn: 3def8e1f
045_convolutional_softplus: 3d8cb95b
045_convolutional_tanh: 3c010a14
045_convolutional_mish: 3d578902
046_shortcut: 3e31f1d8
047_convolutional_bn: 3dc02f18
047_convolutional_softplus: 3d4ccdde
047_convolutional_tanh: 3c010a14
047_convolutional_mish: 3d01b27a
048_convolutional_bn: 3e168349
048_convolutional_softplus: 3db950ec
048_convolutional_tanh: 3c010a14
048_convolutional_mish: 3d81a181
049_shortcut: 3e573aca
050_convolutional_bn: 3debd927
050_convolutional_softplus: 3d24474a
050_convolutional_tanh: 3c010a14
050_convolutional_mish: 3ceee430
051_convolutional_bn: 3e1cbc10
051_convolutional_softplus: 3dc2fd70
051_convolutional_tanh: 3c010a14
051_convolutional_mish: 3daf857b
052_shortcut: 3e7af86c
053_convolutional_bn: 3dfa1dc4
053_convolutional_softplus: 3db21b21
053_convolutional_tanh: 3c010a14
053_convolutional_mish: 3d593f62
054_route: 3d593f62
055_convolutional_bn: 3e1ae9ea
055_convolutional_softplus: 3d75f09d
055_convolutional_tanh: 3c010a14
055_convolutional_mish: 3d217b05
056_convolutional_bn: 3de240ff
056_convolutional_softplus: 3d99d43f
056_convolutional_tanh: 3c010a14
056_convolutional_mish: 3d0e332d
057_convolutional_bn: 3dbe1d97
057_convolutional_softplus: 3d7b8689
057_convolutional_tanh: 3c010a14
057_convolutional_mish: 3d3a634a
059_convolutional_bn: 3da2ab79
059_convolutional_softplus: 3d7937dd
059_convolutional_tanh: 3c010a14
059_convolutional_mish: 3d001474
060_convolutional_bn: 3dbca957
060_convolutional_softplus: 3d88fa8f
060_convolutional_tanh: 3c010a14
060_convolutional_mish: 3d20e532
061_convolutional_bn: 3da6953a
061_convolutional_softplus: 3d50f472
061_convolutional_tanh: 3c031625
061_convolutional_mish: 3ce94ac9
062_shortcut: 3d8a52cf
063_convolutional_bn: 3da253c4
063_convolutional_softplus: 3d483c9a
063_convolutional_tanh: 3c010a14
063_convolutional_mish: 3cf226bd
064_convolutional_bn: 3db021ce
064_convolutional_softplus: 3d222f6e
064_convolutional_tanh: 3c01120b
064_convolutional_mish: 3d01a923
065_shortcut: 3d7fb553
066_convolutional_bn: 3dc239e5
066_convolutional_softplus: 3d467141
066_convolutional_tanh: 3c010a14
066_convolutional_mish: 3d013d6f
067_convolutional_bn: 3da8bb06
067_convolutional_softplus: 3d439e84
067_convolutional_tanh: 3c010a14
067_convolutional_mish: 3cec90c4
068_shortcut: 3d9e5c66
069_convolutional_bn: 3e02c888
069_convolutional_softplus: 3d2a9718
069_convolutional_tanh: 3c010a14
069_convolutional_mish: 3d24df8b
070_convolutional_bn: 3e105685
070_convolutional_softplus: 3d95ad39
070_convolutional_tanh: 3c010a14
070_convolutional_mish: 3d354c6a
071_shortcut: 3dc33b9a
072_convolutional_bn: 3db5a63e
072_convolutional_softplus: 3d346af5
072_convolutional_tanh: 3c010a14
072_convolutional_mish: 3d01c0a6
073_convolutional_bn: 3dceb1d9
073_convolutional_softplus: 3d66e776
073_convolutional_tanh: 3c010a14
073_convolutional_mish: 3d3cb9d7
074_shortcut: 3dd81543
075_convolutional_bn: 3db63ba0
075_convolutional_softplus: 3d31a5fe
075_convolutional_tanh: 3c010a14
075_convolutional_mish: 3ceaf592
076_convolutional_bn: 3dd63aec
076_convolutional_softplus: 3d701da4
076_convolutional_tanh: 3c010a14
076_convolutional_mish: 3d5bf831
077_shortcut: 3df7c638
078_convolutional_bn: 3db3ee50
078_convolutional_softplus: 3d47ec5e
078_convolutional_tanh: 3c010a14
078_convolutional_mish: 3cb0643f
079_convolutional_bn: 3df7359e
079_convolutional_softplus: 3d93f0df
079_convolutional_tanh: 3c010a14
079_convolutional_mish: 3d36c308
080_shortcut: 3e228e10
081_convolutional_bn: 3dbb8cd2
081_convolutional_softplus: 3d373fb1
081_convolutional_tanh: 3c01121e
081_convolutional_mish: 3ce9094f
082_convolutional_bn: 3e0eeb5b
082_convolutional_softplus: 3da3c7fc
082_convolutional_tanh: 3c010a14
082_convolutional_mish: 3d5a44b5
083_shortcut: 3e431182
084_convolutional_bn: 3dd0d4bd
084_convolutional_softplus: 3d8d7757
084_convolutional_tanh: 3c010a14
084_convolutional_mish: 3d22c7ac
085_route: 3d22c7ac
086_convolutional_bn: 3e0c79ae
086_convolutional_softplus: 3d2d3a4e
086_convolutional_tanh: 3c010a14
086_convolutional_mish: 3d5cfbd0
087_convolutional_bn: 3db37df6
087_convolutional_softplus: 3d2a988e
087_convolutional_tanh: 3c011206
087_convolutional_mish: 3cc5024f
088_convolutional_bn: 3e10e54c
088_convolutional_softplus: 3d1891b1
088_convolutional_tanh: 3c010a14
088_convolutional_mish: 3d3e0dfa
090_convolutional_bn: 3da612c7
090_convolutional_softplus: 3d37f4cc
090_convolutional_tanh: 3c010a14
090_convolutional_mish: 3ceea98e
091_convolutional_bn: 3dc721c3
091_convolutional_softplus: 3d318850
091_convolutional_tanh: 3c010a14
091_convolutional_mish: 3d32298e
092_convolutional_bn: 3dda52d5
092_convolutional_softplus: 3d2a1b65
092_convolutional_tanh: 3c01121d
092_convolutional_mish: 3ca68e34
093_shortcut: 3d31d65e
094_convolutional_bn: 3decb33a
094_convolutional_softplus: 3d41854b
094_convolutional_tanh: 3c010a14
094_convolutional_mish: 3ccf0b4c
095_convolutional_bn: 3de119f1
095_convolutional_softplus: 3d27d2ef
095_convolutional_tanh: 3c011214
095_convolutional_mish: 3cd64715
096_shortcut: 3d535665
097_convolutional_bn: 3dcc69f8
097_convolutional_softplus: 3d34c13d
097_convolutional_tanh: 3c01121d
097_convolutional_mish: 3d0452eb
098_convolutional_bn: 3e14374f
098_convolutional_softplus: 3d3b05c1
098_convolutional_tanh: 3c01121d
098_convolutional_mish: 3d11eaba
099_shortcut: 3d6e26f9
100_convolutional_bn: 3da0fbd0
100_convolutional_softplus: 3d1d8298
100_convolutional_tanh: 3c0111fe
100_convolutional_mish: 3cedf344
101_convolutional_bn: 3dc0ed7c
101_convolutional_softplus: 3d639103
101_convolutional_tanh: 3c010a14
101_convolutional_mish: 3cafdef0
102_shortcut: 3d7c5122
103_convolutional_bn: 3dd43c05
103_convolutional_softplus: 3d0e01b0
103_convolutional_tanh: 3c010a14
103_convolutional_mish: 3cfe1cd9
104_route: 3cfe1cd9
105_convolutional_bn: 3ddae389
105_convolutional_softplus: 3d5110bd
105_convolutional_tanh: 3c010a14
105_convolutional_mish: 3d127174
106_convolutional_bn: 3dbc6ef9
106_convolutional_lrelu: 3d47377f
107_convolutional_bn: 3d742f88
107_convolutional_lrelu: 3d061e4f
108_convolutional_bn: 3d799abd
108_convolutional_lrelu: 3d352255
109_maxpool: 3d352255
111_maxpool: 3d352255
113_maxpool: 3d352255
114_route: 3d534db1
115_convolutional_bn: 3e3c2580
115_convolutional_lrelu: 3d55c08f
116_convolutional_bn: 3e17343e
116_convolutional_lrelu: 3d1305ce
117_convolutional_bn: 3db37014
117_convolutional_lrelu: 3d38b495
118_convolutional_bn: 3db49b16
118_convolutional_lrelu: 3d63bd0f
119_upsample: 3d63bd0f
121_convolutional_bn: 3dfeaf2e
121_convolutional_lrelu: 3da19d16
122_route: 3d94598d
123_convolutional_bn: 3e0bbb67
123_convolutional_lrelu: 3d9fb37c
124_convolutional_bn: 3dd9439d
124_convolutional_lrelu: 3d7cf437
125_convolutional_bn: 3e165da4
125_convolutional_lrelu: 3d9fd3cd
126_convolutional_bn: 3def2776
126_convolutional_lrelu: 3d7e33db
127_convolutional_bn: 3de14937
127_convolutional_lrelu: 3d8a141a
128_convolutional_bn: 3e1d5f7e
128_convolutional_lrelu: 3dc1ce60
129_upsample: 3dc1ce60
131_convolutional_bn: 3e03a6d6
131_convolutional_lrelu: 3da18294
132_route: 3d9b1afb
133_convolutional_bn: 3e2fd5b8
133_convolutional_lrelu: 3da4b8b2
134_convolutional_bn: 3e211a4e
134_convolutional_lrelu: 3d8625d7
135_convolutional_bn: 3e3450cd
135_convolutional_lrelu: 3dbd0664
136_convolutional_bn: 3e12d382
136_convolutional_lrelu: 3da0055b
137_convolutional_bn: 3eb32371
137_convolutional_lrelu: 3ddfbb75
138_convolutional_bn: 3e25c186
138_convolutional_lrelu: 3d6255e8
139_convolutional: 3eb4f8af
142_convolutional_bn: 3e066d63
142_convolutional_lrelu: 3d6784fb
143_route: 3d6adb4f
144_convolutional_bn: 3dea9039
144_convolutional_lrelu: 3d8092c1
145_convolutional_bn: 3dcc1ca4
145_convolutional_lrelu: 3d634119
146_convolutional_bn: 3dee6f26
146_convolutional_lrelu: 3db123db
147_convolutional_bn: 3de4283a
147_convolutional_lrelu: 3d44793b
148_convolutional_bn: 3e5d86eb
148_convolutional_lrelu: 3dcfb492
149_convolutional_bn: 3de3219f
149_convolutional_lrelu: 3d887580
150_convolutional: 3ebaa231
153_convolutional_bn: 3dd3e6af
153_convolutional_lrelu: 3d6f4728
154_route: 3d6af776
155_convolutional_bn: 3d9682da
155_convolutional_lrelu: 3d4b4ae8
156_convolutional_bn: 3d7bb971
156_convolutional_lrelu: 3cec6161
157_convolutional_bn: 3da86325
157_convolutional_lrelu: 3d4f85a7
158_convolutional_bn: 3d8ccc92
158_convolutional_lrelu: 3d1b3ba9
159_convolutional_bn: 3dd8387c
159_convolutional_lrelu: 3d244c3a
160_convolutional_bn: 3d6509aa
160_convolutional_lrelu: 3cfc0964
161_convolutional: 3e68acaa
