TRT-8403-EntropyCalibration2
input_1: 3f9849a2
resnet50/conv1_conv/Conv2D__6:0: 3f9849a2
resnet50/conv1_bn/FusedBatchNormV3:0: 3db6790c
resnet50/conv1_relu/Relu:0: 3db6790c
resnet50/pool1_pad/Pad:0: 3db6790c
resnet50/pool1_pool/MaxPool:0: 3db6790c
resnet50/conv2_block1_1_bn/FusedBatchNormV3:0: 3dfc9b07
resnet50/conv2_block1_1_relu/Relu:0: 3d8c1ef4
resnet50/conv2_block1_2_bn/FusedBatchNormV3:0: 3dc4fb63
resnet50/conv2_block1_2_relu/Relu:0: 3dcccd77
resnet50/conv2_block1_3_bn/FusedBatchNormV3:0: 3d9420f8
resnet50/conv2_block1_0_bn/FusedBatchNormV3:0: 3e076a23
resnet50/conv2_block1_add/add:0: 3e01fe1c
resnet50/conv2_block1_out/Relu:0: 3dc9fdde
resnet50/conv2_block2_1_bn/FusedBatchNormV3:0: 3dc7e8db
resnet50/conv2_block2_1_relu/Relu:0: 3d8b7d45
resnet50/conv2_block2_2_bn/FusedBatchNormV3:0: 3da7a1b1
resnet50/conv2_block2_2_relu/Relu:0: 3d81e03c
resnet50/conv2_block2_3_bn/FusedBatchNormV3:0: 3d78583d
resnet50/conv2_block2_add/add:0: 3db4fd1f
resnet50/conv2_block2_out/Relu:0: 3dbdb60b
resnet50/conv2_block3_1_bn/FusedBatchNormV3:0: 3daa32b4
resnet50/conv2_block3_1_relu/Relu:0: 3d81ea1d
resnet50/conv2_block3_2_bn/FusedBatchNormV3:0: 3daf33ab
resnet50/conv2_block3_2_relu/Relu:0: 3db77629
resnet50/conv2_block3_3_bn/FusedBatchNormV3:0: 3d8ed686
resnet50/conv2_block3_add/add:0: 3db3ce0c
resnet50/conv2_block3_out/Relu:0: 3db3ce0c
resnet50/conv3_block1_1_bn/FusedBatchNormV3:0: 3d91abd3
resnet50/conv3_block1_1_relu/Relu:0: 3d8c64ed
resnet50/conv3_block1_2_bn/FusedBatchNormV3:0: 3d9535c6
resnet50/conv3_block1_2_relu/Relu:0: 3d6e8564
resnet50/conv3_block1_3_bn/FusedBatchNormV3:0: 3dc90ee3
resnet50/conv3_block1_0_bn/FusedBatchNormV3:0: 3dc78d2f
resnet50/conv3_block1_add/add:0: 3dfe79eb
resnet50/conv3_block1_out/Relu:0: 3de46e42
resnet50/conv3_block2_1_bn/FusedBatchNormV3:0: 3d739452
resnet50/conv3_block2_1_relu/Relu:0: 3d76f24d
resnet50/conv3_block2_2_bn/FusedBatchNormV3:0: 3d9f46a9
resnet50/conv3_block2_2_relu/Relu:0: 3d8c9928
resnet50/conv3_block2_3_bn/FusedBatchNormV3:0: 3d838823
resnet50/conv3_block2_add/add:0: 3dc06b87
resnet50/conv3_block2_out/Relu:0: 3dc06b87
resnet50/conv3_block3_1_bn/FusedBatchNormV3:0: 3d86cd9f
resnet50/conv3_block3_1_relu/Relu:0: 3db0b8ee
resnet50/conv3_block3_2_bn/FusedBatchNormV3:0: 3db71dbb
resnet50/conv3_block3_2_relu/Relu:0: 3db71dbb
resnet50/conv3_block3_3_bn/FusedBatchNormV3:0: 3de09cb6
resnet50/conv3_block3_add/add:0: 3ddd8274
resnet50/conv3_block3_out/Relu:0: 3dca8bae
resnet50/conv3_block4_1_bn/FusedBatchNormV3:0: 3dd7b6ba
resnet50/conv3_block4_1_relu/Relu:0: 3db7d970
resnet50/conv3_block4_2_bn/FusedBatchNormV3:0: 3dae009c
resnet50/conv3_block4_2_relu/Relu:0: 3db1c838
resnet50/conv3_block4_3_bn/FusedBatchNormV3:0: 3d5225d1
resnet50/conv3_block4_add/add:0: 3dee94a4
resnet50/conv3_block4_out/Relu:0: 3def310c
resnet50/conv4_block1_1_bn/FusedBatchNormV3:0: 3d8cf9e5
resnet50/conv4_block1_1_relu/Relu:0: 3d996283
resnet50/conv4_block1_2_bn/FusedBatchNormV3:0: 3d96df65
resnet50/conv4_block1_2_relu/Relu:0: 3d696294
resnet50/conv4_block1_3_bn/FusedBatchNormV3:0: 3d9a7ee0
resnet50/conv4_block1_0_bn/FusedBatchNormV3:0: 3de1463d
resnet50/conv4_block1_add/add:0: 3dea3773
resnet50/conv4_block1_out/Relu:0: 3df2156a
resnet50/conv4_block2_1_bn/FusedBatchNormV3:0: 3d80e06b
resnet50/conv4_block2_1_relu/Relu:0: 3d80c2b3
resnet50/conv4_block2_2_bn/FusedBatchNormV3:0: 3d914c86
resnet50/conv4_block2_2_relu/Relu:0: 3d3f0a5c
resnet50/conv4_block2_3_bn/FusedBatchNormV3:0: 3d9a30a3
resnet50/conv4_block2_add/add:0: 3dc70b0f
resnet50/conv4_block2_out/Relu:0: 3dcc3938
resnet50/conv4_block3_1_bn/FusedBatchNormV3:0: 3d83ae3d
resnet50/conv4_block3_1_relu/Relu:0: 3d6d5b77
resnet50/conv4_block3_2_bn/FusedBatchNormV3:0: 3d7612f7
resnet50/conv4_block3_2_relu/Relu:0: 3d5bb9cf
resnet50/conv4_block3_3_bn/FusedBatchNormV3:0: 3d7121e6
resnet50/conv4_block3_add/add:0: 3dc58244
resnet50/conv4_block3_out/Relu:0: 3dc3fab0
resnet50/conv4_block4_1_bn/FusedBatchNormV3:0: 3d73c3c3
resnet50/conv4_block4_1_relu/Relu:0: 3d801979
resnet50/conv4_block4_2_bn/FusedBatchNormV3:0: 3d99960f
resnet50/conv4_block4_2_relu/Relu:0: 3d98f497
resnet50/conv4_block4_3_bn/FusedBatchNormV3:0: 3de071fe
resnet50/conv4_block4_add/add:0: 3e027a1f
resnet50/conv4_block4_out/Relu:0: 3dc3c77a
resnet50/conv4_block5_1_bn/FusedBatchNormV3:0: 3d8dcf32
resnet50/conv4_block5_1_relu/Relu:0: 3d82c4cf
resnet50/conv4_block5_2_bn/FusedBatchNormV3:0: 3dad1957
resnet50/conv4_block5_2_relu/Relu:0: 3dabfbe7
resnet50/conv4_block5_3_bn/FusedBatchNormV3:0: 3df0dea7
resnet50/conv4_block5_add/add:0: 3e037b61
resnet50/conv4_block5_out/Relu:0: 3dd5b4ce
resnet50/conv4_block6_1_bn/FusedBatchNormV3:0: 3d937a66
resnet50/conv4_block6_1_relu/Relu:0: 3d8bacfd
resnet50/conv4_block6_2_bn/FusedBatchNormV3:0: 3da6f30c
resnet50/conv4_block6_2_relu/Relu:0: 3db1015e
resnet50/conv4_block6_3_bn/FusedBatchNormV3:0: 3d7ba48d
resnet50/conv4_block6_add/add:0: 3dbfd187
resnet50/conv4_block6_out/Relu:0: 3e015583
resnet50/conv5_block1_1_bn/FusedBatchNormV3:0: 3d7e0adb
resnet50/conv5_block1_1_relu/Relu:0: 3d76821c
resnet50/conv5_block1_2_bn/FusedBatchNormV3:0: 3d8d820b
resnet50/conv5_block1_2_relu/Relu:0: 3d43af34
resnet50/conv5_block1_3_bn/FusedBatchNormV3:0: 3dd55fa3
resnet50/conv5_block1_0_bn/FusedBatchNormV3:0: 3e4cad17
resnet50/conv5_block1_add/add:0: 3e6a1f9c
resnet50/conv5_block1_out/Relu:0: 3e8577f7
resnet50/conv5_block2_1_bn/FusedBatchNormV3:0: 3d84c976
resnet50/conv5_block2_1_relu/Relu:0: 3d53d009
resnet50/conv5_block2_2_bn/FusedBatchNormV3:0: 3d93e359
resnet50/conv5_block2_2_relu/Relu:0: 3d3ddeb1
resnet50/conv5_block2_3_bn/FusedBatchNormV3:0: 3dd1ff54
resnet50/conv5_block2_add/add:0: 3e469781
resnet50/conv5_block2_out/Relu:0: 3e80c43b
resnet50/conv5_block3_1_bn/FusedBatchNormV3:0: 3d8ef234
resnet50/conv5_block3_1_relu/Relu:0: 3d67da30
resnet50/conv5_block3_2_bn/FusedBatchNormV3:0: 3d90401b
resnet50/conv5_block3_2_relu/Relu:0: 3d872f39
resnet50/conv5_block3_3_bn/FusedBatchNormV3:0: 3e15becf
resnet50/conv5_block3_add/add:0: 3e6b1755
resnet50/conv5_block3_out/Relu:0: 3eabcc20
resnet50/avg_pool/Mean:0: 3dbeba7a
resnet50/predictions/MatMul_Gemm__8:0: 3e733c78
predictions: 3ab9818c
