TRT-8403-EntropyCalibration2
input_1: 4000890a
StatefulPartitionedCall/mobilenet_1.00_224/conv1/Conv2D__6:0: 4000890a
StatefulPartitionedCall/mobilenet_1.00_224/conv1_bn/FusedBatchNormV3:0: 4105b67c
StatefulPartitionedCall/mobilenet_1.00_224/conv1_relu/Relu6:0: 3d418f1e
StatefulPartitionedCall/mobilenet_1.00_224/conv_dw_1_bn/FusedBatchNormV3:0: 3db27692
StatefulPartitionedCall/mobilenet_1.00_224/conv_dw_1_relu/Relu6:0: 3b576ede
StatefulPartitionedCall/mobilenet_1.00_224/conv_pw_1_bn/FusedBatchNormV3:0: 3e6b43da
StatefulPartitionedCall/mobilenet_1.00_224/conv_pw_1_relu/Relu6:0: 3d418f1e
StatefulPartitionedCall/mobilenet_1.00_224/conv_pad_2/Pad:0: 3d418f1e
StatefulPartitionedCall/mobilenet_1.00_224/conv_dw_2_bn/FusedBatchNormV3:0: 3d5fa181
StatefulPartitionedCall/mobilenet_1.00_224/conv_dw_2_relu/Relu6:0: 3d418f1e
StatefulPartitionedCall/mobilenet_1.00_224/conv_pw_2_bn/FusedBatchNormV3:0: 3deee500
StatefulPartitionedCall/mobilenet_1.00_224/conv_pw_2_relu/Relu6:0: 3d418f1e
StatefulPartitionedCall/mobilenet_1.00_224/conv_dw_3_bn/FusedBatchNormV3:0: 3e1a1b5e
StatefulPartitionedCall/mobilenet_1.00_224/conv_dw_3_relu/Relu6:0: 3d418f1e
StatefulPartitionedCall/mobilenet_1.00_224/conv_pw_3_bn/FusedBatchNormV3:0: 3e5112a5
StatefulPartitionedCall/mobilenet_1.00_224/conv_pw_3_relu/Relu6:0: 3d418f1e
StatefulPartitionedCall/mobilenet_1.00_224/conv_pad_4/Pad:0: 3d418f1e
StatefulPartitionedCall/mobilenet_1.00_224/conv_dw_4_bn/FusedBatchNormV3:0: 3d959e6a
StatefulPartitionedCall/mobilenet_1.00_224/conv_dw_4_relu/Relu6:0: 3d418f1e
StatefulPartitionedCall/mobilenet_1.00_224/conv_pw_4_bn/FusedBatchNormV3:0: 3de48f10
StatefulPartitionedCall/mobilenet_1.00_224/conv_pw_4_relu/Relu6:0: 3d418f1e
StatefulPartitionedCall/mobilenet_1.00_224/conv_dw_5_bn/FusedBatchNormV3:0: 3db464e2
StatefulPartitionedCall/mobilenet_1.00_224/conv_dw_5_relu/Relu6:0: 3d418f1e
StatefulPartitionedCall/mobilenet_1.00_224/conv_pw_5_bn/FusedBatchNormV3:0: 3dea6ff7
StatefulPartitionedCall/mobilenet_1.00_224/conv_pw_5_relu/Relu6:0: 3d418f1e
StatefulPartitionedCall/mobilenet_1.00_224/conv_pad_6/Pad:0: 3d418f1e
StatefulPartitionedCall/mobilenet_1.00_224/conv_dw_6_bn/FusedBatchNormV3:0: 3d8ee96e
StatefulPartitionedCall/mobilenet_1.00_224/conv_dw_6_relu/Relu6:0: 3d418f1e
StatefulPartitionedCall/mobilenet_1.00_224/conv_pw_6_bn/FusedBatchNormV3:0: 3de1129b
StatefulPartitionedCall/mobilenet_1.00_224/conv_pw_6_relu/Relu6:0: 3d418f1e
StatefulPartitionedCall/mobilenet_1.00_224/conv_dw_7_bn/FusedBatchNormV3:0: 3e082b85
StatefulPartitionedCall/mobilenet_1.00_224/conv_dw_7_relu/Relu6:0: 3d418f1e
StatefulPartitionedCall/mobilenet_1.00_224/conv_pw_7_bn/FusedBatchNormV3:0: 3dc9f1ab
StatefulPartitionedCall/mobilenet_1.00_224/conv_pw_7_relu/Relu6:0: 3d418f1e
StatefulPartitionedCall/mobilenet_1.00_224/conv_dw_8_bn/FusedBatchNormV3:0: 3d94f967
StatefulPartitionedCall/mobilenet_1.00_224/conv_dw_8_relu/Relu6:0: 3d418f1e
StatefulPartitionedCall/mobilenet_1.00_224/conv_pw_8_bn/FusedBatchNormV3:0: 3d6b3ab9
StatefulPartitionedCall/mobilenet_1.00_224/conv_pw_8_relu/Relu6:0: 3d418f1e
StatefulPartitionedCall/mobilenet_1.00_224/conv_dw_9_bn/FusedBatchNormV3:0: 3d68852b
StatefulPartitionedCall/mobilenet_1.00_224/conv_dw_9_relu/Relu6:0: 3d1e68d2
StatefulPartitionedCall/mobilenet_1.00_224/conv_pw_9_bn/FusedBatchNormV3:0: 3d8c239c
StatefulPartitionedCall/mobilenet_1.00_224/conv_pw_9_relu/Relu6:0: 3d418f1e
StatefulPartitionedCall/mobilenet_1.00_224/conv_dw_10_bn/FusedBatchNormV3:0: 3d908e48
StatefulPartitionedCall/mobilenet_1.00_224/conv_dw_10_relu/Relu6:0: 3d232245
StatefulPartitionedCall/mobilenet_1.00_224/conv_pw_10_bn/FusedBatchNormV3:0: 3d878142
StatefulPartitionedCall/mobilenet_1.00_224/conv_pw_10_relu/Relu6:0: 3d418f1e
StatefulPartitionedCall/mobilenet_1.00_224/conv_dw_11_bn/FusedBatchNormV3:0: 3d758de4
StatefulPartitionedCall/mobilenet_1.00_224/conv_dw_11_relu/Relu6:0: 3d2bd3a7
StatefulPartitionedCall/mobilenet_1.00_224/conv_pw_11_bn/FusedBatchNormV3:0: 3d83460b
StatefulPartitionedCall/mobilenet_1.00_224/conv_pw_11_relu/Relu6:0: 3d47a8df
StatefulPartitionedCall/mobilenet_1.00_224/conv_pad_12/Pad:0: 3d47a8df
StatefulPartitionedCall/mobilenet_1.00_224/conv_dw_12_bn/FusedBatchNormV3:0: 3d1b8461
StatefulPartitionedCall/mobilenet_1.00_224/conv_dw_12_relu/Relu6:0: 3d452ce5
StatefulPartitionedCall/mobilenet_1.00_224/conv_pw_12_bn/FusedBatchNormV3:0: 3da1a62a
StatefulPartitionedCall/mobilenet_1.00_224/conv_pw_12_relu/Relu6:0: 3d4935a1
StatefulPartitionedCall/mobilenet_1.00_224/conv_dw_13_bn/FusedBatchNormV3:0: 3d63ac06
StatefulPartitionedCall/mobilenet_1.00_224/conv_dw_13_relu/Relu6:0: 3d037af6
StatefulPartitionedCall/mobilenet_1.00_224/conv_pw_13_bn/FusedBatchNormV3:0: 3e91ddc4
StatefulPartitionedCall/mobilenet_1.00_224/conv_pw_13_relu/Relu6:0: 3d418f1e
StatefulPartitionedCall/mobilenet_1.00_224/global_average_pooling2d/Mean:0: 3d4255cb
StatefulPartitionedCall/mobilenet_1.00_224/conv_preds/BiasAdd:0: 3e1e0173
StatefulPartitionedCall/mobilenet_1.00_224/reshape_2/Reshape:0: 3e1e0173
predictions: 3ab91e03
